unsigned char g_model[] = {
  0x20, 0x00, 0x00, 0x00, 0x54, 0x46, 0x4c, 0x33, 0x00, 0x00, 0x00, 0x00,
  0x14, 0x00, 0x20, 0x00, 0x1c, 0x00, 0x18, 0x00, 0x14, 0x00, 0x10, 0x00,
  0x0c, 0x00, 0x00, 0x00, 0x08, 0x00, 0x04, 0x00, 0x14, 0x00, 0x00, 0x00,
  0x1c, 0x00, 0x00, 0x00, 0x8c, 0x00, 0x00, 0x00, 0x0c, 0x01, 0x00, 0x00,
  0xa0, 0x07, 0x00, 0x00, 0xb0, 0x07, 0x00, 0x00, 0xe4, 0x14, 0x00, 0x00,
  0x03, 0x00, 0x00, 0x00, 0x01, 0x00, 0x00, 0x00, 0x04, 0x00, 0x00, 0x00,
  0x0e, 0xf8, 0xff, 0xff, 0x0c, 0x00, 0x00, 0x00, 0x1c, 0x00, 0x00, 0x00,
  0x3c, 0x00, 0x00, 0x00, 0x0f, 0x00, 0x00, 0x00, 0x73, 0x65, 0x72, 0x76,
  0x69, 0x6e, 0x67, 0x5f, 0x64, 0x65, 0x66, 0x61, 0x75, 0x6c, 0x74, 0x00,
  0x01, 0x00, 0x00, 0x00, 0x04, 0x00, 0x00, 0x00, 0x68, 0xff, 0xff, 0xff,
  0x0b, 0x00, 0x00, 0x00, 0x04, 0x00, 0x00, 0x00, 0x08, 0x00, 0x00, 0x00,
  0x6f, 0x75, 0x74, 0x70, 0x75, 0x74, 0x5f, 0x30, 0x00, 0x00, 0x00, 0x00,
  0x01, 0x00, 0x00, 0x00, 0x04, 0x00, 0x00, 0x00, 0xe6, 0xf8, 0xff, 0xff,
  0x04, 0x00, 0x00, 0x00, 0x0d, 0x00, 0x00, 0x00, 0x69, 0x6e, 0x70, 0x75,
  0x74, 0x5f, 0x6c, 0x61, 0x79, 0x65, 0x72, 0x5f, 0x36, 0x00, 0x00, 0x00,
  0x03, 0x00, 0x00, 0x00, 0x5c, 0x00, 0x00, 0x00, 0x2c, 0x00, 0x00, 0x00,
  0x04, 0x00, 0x00, 0x00, 0xb8, 0xff, 0xff, 0xff, 0x0f, 0x00, 0x00, 0x00,
  0x04, 0x00, 0x00, 0x00, 0x13, 0x00, 0x00, 0x00, 0x43, 0x4f, 0x4e, 0x56,
  0x45, 0x52, 0x53, 0x49, 0x4f, 0x4e, 0x5f, 0x4d, 0x45, 0x54, 0x41, 0x44,
  0x41, 0x54, 0x41, 0x00, 0xdc, 0xff, 0xff, 0xff, 0x0e, 0x00, 0x00, 0x00,
  0x04, 0x00, 0x00, 0x00, 0x13, 0x00, 0x00, 0x00, 0x6d, 0x69, 0x6e, 0x5f,
  0x72, 0x75, 0x6e, 0x74, 0x69, 0x6d, 0x65, 0x5f, 0x76, 0x65, 0x72, 0x73,
  0x69, 0x6f, 0x6e, 0x00, 0x08, 0x00, 0x0c, 0x00, 0x08, 0x00, 0x04, 0x00,
  0x08, 0x00, 0x00, 0x00, 0x0d, 0x00, 0x00, 0x00, 0x04, 0x00, 0x00, 0x00,
  0x13, 0x00, 0x00, 0x00, 0x6d, 0x69, 0x6e, 0x5f, 0x72, 0x75, 0x6e, 0x74,
  0x69, 0x6d, 0x65, 0x5f, 0x76, 0x65, 0x72, 0x73, 0x69, 0x6f, 0x6e, 0x00,
  0x10, 0x00, 0x00, 0x00, 0x90, 0x06, 0x00, 0x00, 0x88, 0x06, 0x00, 0x00,
  0x74, 0x06, 0x00, 0x00, 0x3c, 0x06, 0x00, 0x00, 0xac, 0x05, 0x00, 0x00,
  0x9c, 0x01, 0x00, 0x00, 0x0c, 0x01, 0x00, 0x00, 0xdc, 0x00, 0x00, 0x00,
  0xd4, 0x00, 0x00, 0x00, 0xcc, 0x00, 0x00, 0x00, 0xc4, 0x00, 0x00, 0x00,
  0xbc, 0x00, 0x00, 0x00, 0xb4, 0x00, 0x00, 0x00, 0x94, 0x00, 0x00, 0x00,
  0x74, 0x00, 0x00, 0x00, 0x04, 0x00, 0x00, 0x00, 0xca, 0xf9, 0xff, 0xff,
  0x04, 0x00, 0x00, 0x00, 0x60, 0x00, 0x00, 0x00, 0x0c, 0x00, 0x00, 0x00,
  0x08, 0x00, 0x0e, 0x00, 0x08, 0x00, 0x04, 0x00, 0x08, 0x00, 0x00, 0x00,
  0x10, 0x00, 0x00, 0x00, 0x28, 0x00, 0x00, 0x00, 0x00, 0x00, 0x06, 0x00,
  0x08, 0x00, 0x04, 0x00, 0x06, 0x00, 0x00, 0x00, 0x04, 0x00, 0x00, 0x00,
  0x01, 0x00, 0x00, 0x00, 0xeb, 0x03, 0x00, 0x00, 0x0c, 0x00, 0x18, 0x00,
  0x14, 0x00, 0x10, 0x00, 0x0c, 0x00, 0x04, 0x00, 0x0c, 0x00, 0x00, 0x00,
  0x81, 0x23, 0xbd, 0x2c, 0xcf, 0x1f, 0x3f, 0x7e, 0x02, 0x00, 0x00, 0x00,
  0x02, 0x00, 0x00, 0x00, 0x04, 0x00, 0x00, 0x00, 0x06, 0x00, 0x00, 0x00,
  0x32, 0x2e, 0x31, 0x37, 0x2e, 0x30, 0x00, 0x00, 0x36, 0xfa, 0xff, 0xff,
  0x04, 0x00, 0x00, 0x00, 0x10, 0x00, 0x00, 0x00, 0x00, 0x00, 0x00, 0x00,
  0x00, 0x00, 0x00, 0x00, 0x00, 0x00, 0x00, 0x00, 0x00, 0x00, 0x00, 0x00,
  0x52, 0xfa, 0xff, 0xff, 0x04, 0x00, 0x00, 0x00, 0x10, 0x00, 0x00, 0x00,
  0x31, 0x2e, 0x31, 0x34, 0x2e, 0x30, 0x00, 0x00, 0x00, 0x00, 0x00, 0x00,
  0x00, 0x00, 0x00, 0x00, 0x3c, 0xed, 0xff, 0xff, 0x40, 0xed, 0xff, 0xff,
  0x44, 0xed, 0xff, 0xff, 0x48, 0xed, 0xff, 0xff, 0x4c, 0xed, 0xff, 0xff,
  0x82, 0xfa, 0xff, 0xff, 0x04, 0x00, 0x00, 0x00, 0x20, 0x00, 0x00, 0x00,
  0x7f, 0x7f, 0x7f, 0x7f, 0x7f, 0x7f, 0x81, 0x7f, 0x7f, 0x81, 0x81, 0x81,
  0x7f, 0x7f, 0x81, 0x7f, 0x81, 0x81, 0x81, 0x7f, 0x7f, 0x81, 0x81, 0x7f,
  0x7f, 0x81, 0x7f, 0x81, 0x81, 0x81, 0x81, 0x81, 0xae, 0xfa, 0xff, 0xff,
  0x04, 0x00, 0x00, 0x00, 0x80, 0x00, 0x00, 0x00, 0x24, 0xc6, 0xff, 0xff,
  0x41, 0x00, 0x00, 0x00, 0x68, 0x0f, 0x00, 0x00, 0x7a, 0xfd, 0xff, 0xff,
  0xd5, 0x17, 0x01, 0x00, 0x4c, 0xe5, 0xff, 0xff, 0x00, 0x00, 0x00, 0x00,
  0xf3, 0x0a, 0x00, 0x00, 0x24, 0xea, 0xff, 0xff, 0x00, 0x00, 0x00, 0x00,
  0x00, 0x00, 0x00, 0x00, 0x00, 0x00, 0x00, 0x00, 0x5b, 0x00, 0x00, 0x00,
  0x53, 0xd0, 0xff, 0xff, 0x00, 0x00, 0x00, 0x00, 0x8e, 0xfb, 0xff, 0xff,
  0x00, 0x00, 0x00, 0x00, 0x00, 0x00, 0x00, 0x00, 0x00, 0x00, 0x00, 0x00,
  0x35, 0x4a, 0x00, 0x00, 0x03, 0xfa, 0xff, 0xff, 0x00, 0x00, 0x00, 0x00,
  0x00, 0x00, 0x00, 0x00, 0xf2, 0x41, 0x01, 0x00, 0xe6, 0x0e, 0x00, 0x00,
  0x00, 0x00, 0x00, 0x00, 0xbe, 0xdd, 0xff, 0xff, 0x00, 0x00, 0x00, 0x00,
  0x00, 0x00, 0x00, 0x00, 0x00, 0x00, 0x00, 0x00, 0x00, 0x00, 0x00, 0x00,
  0x00, 0x00, 0x00, 0x00, 0x3a, 0xfb, 0xff, 0xff, 0x04, 0x00, 0x00, 0x00,
  0x00, 0x04, 0x00, 0x00, 0xd3, 0x66, 0xeb, 0x4c, 0x7f, 0x40, 0xd5, 0x51,
  0xb4, 0x1a, 0xf5, 0x51, 0xbc, 0x02, 0x06, 0x51, 0x15, 0x2a, 0x50, 0xe4,
  0x03, 0xe9, 0xfc, 0xe6, 0x59, 0xfd, 0x8e, 0x5d, 0x5f, 0x06, 0xe2, 0x3e,
  0x43, 0x2e, 0x75, 0x23, 0xbc, 0xc2, 0xa4, 0xd7, 0x61, 0x58, 0x74, 0x15,
  0x55, 0x45, 0x67, 0x0e, 0x4b, 0x84, 0x7f, 0xb6, 0x6a, 0x74, 0xd2, 0x6c,
  0x2e, 0x03, 0x08, 0x66, 0x94, 0x6c, 0x59, 0x9e, 0x10, 0x03, 0x10, 0x31,
  0x13, 0x60, 0xa6, 0x26, 0xc3, 0xa4, 0xcf, 0x58, 0x56, 0x7f, 0x15, 0x03,
  0x2d, 0xb1, 0xbc, 0xa5, 0x63, 0x61, 0xd2, 0x17, 0xb4, 0xaa, 0x59, 0x56,
  0xc6, 0xcb, 0x2e, 0xe2, 0xd8, 0x18, 0x51, 0xa6, 0x15, 0x0b, 0xdd, 0xaa,
  0x17, 0xe9, 0xc4, 0x6a, 0x4c, 0xa8, 0x0e, 0x0d, 0xd0, 0xd3, 0x13, 0x7f,
  0x5d, 0xc3, 0xec, 0xd9, 0x50, 0x37, 0x4d, 0x64, 0x1b, 0x6a, 0x46, 0xd8,
  0xe4, 0xcd, 0xba, 0xe0, 0x12, 0x00, 0xe0, 0x9b, 0xf6, 0xe0, 0xdc, 0xf9,
  0x55, 0xd3, 0x06, 0xec, 0x07, 0xd7, 0x16, 0x72, 0xf1, 0xe2, 0x03, 0x7f,
  0xd6, 0x2e, 0x21, 0xdf, 0x0b, 0xd5, 0xf8, 0xdb, 0x43, 0xf3, 0xdd, 0xfe,
  0x27, 0x81, 0x61, 0xc2, 0x0e, 0x88, 0x30, 0xfa, 0xdb, 0xfc, 0x94, 0x89,
  0xa0, 0x61, 0x4b, 0x01, 0x0d, 0x21, 0x63, 0xad, 0xf7, 0xf6, 0x07, 0x4c,
  0xbd, 0x7c, 0x67, 0x5b, 0x81, 0x81, 0x3e, 0xbe, 0xcf, 0xee, 0xe2, 0x35,
  0x8c, 0x0d, 0x39, 0xd0, 0xd3, 0xb0, 0x6c, 0x41, 0xb0, 0xf4, 0x48, 0x00,
  0xa3, 0x27, 0x9e, 0x69, 0xac, 0xf5, 0x44, 0x20, 0xe5, 0x0c, 0xeb, 0x8c,
  0xb0, 0x9b, 0xb3, 0xa9, 0x6e, 0xe4, 0xfe, 0xb4, 0x50, 0x44, 0x3b, 0xc9,
  0x58, 0xc2, 0xcf, 0x2e, 0x42, 0xf2, 0xc2, 0xed, 0xb2, 0xfb, 0x29, 0x7f,
  0x98, 0xfa, 0xb4, 0xe3, 0x01, 0xb9, 0x13, 0xca, 0x1d, 0xf4, 0x55, 0x1f,
  0x18, 0x39, 0xbd, 0x3b, 0xc0, 0x1f, 0xfd, 0x1c, 0x5e, 0xfc, 0x54, 0x0c,
  0xe1, 0xdb, 0x24, 0x7f, 0x50, 0x23, 0x30, 0x2c, 0xd0, 0x42, 0xdd, 0x19,
  0xb2, 0xad, 0x1f, 0x46, 0x0f, 0x24, 0x81, 0xfe, 0xe7, 0xa1, 0xe4, 0xa1,
  0xb8, 0xb2, 0x81, 0x20, 0x4a, 0x9d, 0x8a, 0x86, 0x12, 0x0b, 0xc6, 0xd0,
  0xd6, 0x5e, 0x2d, 0xd8, 0x0a, 0xed, 0xe4, 0x58, 0x13, 0xf9, 0xfa, 0x2a,
  0x22, 0x27, 0xbc, 0x5f, 0x76, 0x54, 0x1b, 0xed, 0x5f, 0xfe, 0xb4, 0xab,
  0x93, 0xbc, 0x15, 0x49, 0x18, 0xf7, 0x63, 0xb8, 0x7f, 0x12, 0x96, 0xd2,
  0x88, 0xc1, 0x9e, 0x36, 0x95, 0x8c, 0x9f, 0x57, 0x6d, 0x59, 0x33, 0x2c,
  0x81, 0x9f, 0x68, 0x04, 0x9f, 0x83, 0xe9, 0x37, 0xaa, 0xc4, 0xe0, 0x37,
  0x24, 0x60, 0x52, 0x0b, 0x70, 0x06, 0xc9, 0xb6, 0xa0, 0x93, 0x13, 0xb9,
  0xa0, 0xda, 0xc8, 0xc6, 0x19, 0xea, 0x5e, 0xeb, 0x1e, 0x9c, 0xde, 0xfb,
  0x09, 0xec, 0x43, 0xb8, 0x1d, 0x81, 0xeb, 0x4a, 0xff, 0x57, 0x34, 0xe9,
  0x59, 0xe5, 0xf7, 0x44, 0x5f, 0xd6, 0xf6, 0x06, 0xca, 0xc2, 0xbd, 0xae,
  0xf4, 0xca, 0x7f, 0xd2, 0xad, 0xf0, 0x9a, 0x39, 0x88, 0x31, 0xa9, 0x91,
  0xdb, 0xf9, 0x43, 0xd9, 0xe0, 0x8c, 0x42, 0x27, 0xe6, 0xb9, 0x82, 0xf8,
  0x97, 0xd6, 0xad, 0xf0, 0xb5, 0x89, 0xec, 0x12, 0x7f, 0x28, 0x39, 0xff,
  0x9f, 0x32, 0x39, 0xf2, 0x38, 0x32, 0xdd, 0x10, 0x2b, 0x35, 0xcc, 0xee,
  0x02, 0xd8, 0x37, 0xb5, 0x00, 0xdd, 0x19, 0x97, 0xea, 0xc9, 0x4c, 0xe3,
  0xf3, 0x05, 0x39, 0xf6, 0x7f, 0xa7, 0x39, 0xb3, 0x1b, 0xd6, 0x5b, 0x82,
  0xea, 0x4e, 0xbf, 0xda, 0xad, 0x51, 0xaf, 0x51, 0xc8, 0x0f, 0x3c, 0x9b,
  0x1b, 0xb9, 0x99, 0x60, 0xd9, 0x56, 0xed, 0xf1, 0x81, 0x87, 0x0c, 0x09,
  0x96, 0xca, 0x41, 0x12, 0xdb, 0xda, 0xa6, 0x02, 0xa3, 0xe4, 0x18, 0x37,
  0x05, 0x0f, 0x21, 0x56, 0xd5, 0x52, 0xe7, 0x63, 0x4c, 0x59, 0x62, 0x7f,
  0x5a, 0xc4, 0xa6, 0xb0, 0x48, 0xef, 0xd7, 0xb7, 0x7b, 0x35, 0x94, 0x02,
  0xc3, 0x69, 0x58, 0x72, 0x9d, 0xe4, 0x3d, 0x9f, 0x89, 0x8f, 0x16, 0xab,
  0x75, 0xc1, 0x7f, 0x9c, 0x36, 0xbb, 0xa6, 0xd9, 0x50, 0xb6, 0xde, 0x7a,
  0x0c, 0x6b, 0xb0, 0xb3, 0x11, 0xb0, 0x4e, 0x46, 0xd7, 0x00, 0x56, 0xea,
  0x41, 0xc6, 0xe3, 0xd9, 0xd7, 0xba, 0xf7, 0xec, 0x9e, 0x49, 0xad, 0xdc,
  0xac, 0x64, 0xfc, 0x7f, 0x44, 0x52, 0xc8, 0x2d, 0x10, 0xee, 0xee, 0xc4,
  0xad, 0x18, 0xf5, 0x00, 0x7f, 0x07, 0x66, 0x65, 0xc4, 0x65, 0x26, 0xde,
  0xae, 0xff, 0x25, 0x3d, 0xde, 0x0a, 0x19, 0xc4, 0x1c, 0x62, 0xde, 0x0b,
  0x62, 0x3c, 0x51, 0xb0, 0xf9, 0x54, 0xc2, 0x57, 0x39, 0x5b, 0x09, 0x44,
  0xdd, 0x5d, 0x52, 0x03, 0x47, 0xda, 0xb8, 0xdf, 0xa2, 0x14, 0x3e, 0xa6,
  0x33, 0x4a, 0x03, 0xc2, 0xc1, 0x1a, 0xeb, 0x81, 0x17, 0x4a, 0x0e, 0x57,
  0xe1, 0xcd, 0x0f, 0xaf, 0x12, 0x68, 0x07, 0x36, 0xda, 0xbf, 0x6e, 0xd1,
  0x8e, 0x71, 0x4d, 0x97, 0xae, 0x1d, 0xc2, 0xc6, 0x51, 0x37, 0xa4, 0xa9,
  0x01, 0xaf, 0xd3, 0x71, 0xc7, 0x02, 0x81, 0x67, 0x31, 0x4a, 0xce, 0x7d,
  0x7f, 0xe2, 0x05, 0x38, 0x99, 0x3d, 0x1f, 0x0f, 0x37, 0x52, 0xb7, 0x0b,
  0x03, 0xff, 0x51, 0x50, 0x25, 0x07, 0xcf, 0xaf, 0x33, 0xd1, 0xd4, 0xf4,
  0xcd, 0x47, 0x14, 0x39, 0x32, 0xad, 0x49, 0xc1, 0xd3, 0xad, 0xdc, 0xb9,
  0x50, 0xbc, 0xb9, 0xd1, 0xa2, 0xc5, 0xca, 0x0b, 0xd6, 0xec, 0x2a, 0x95,
  0xdb, 0xec, 0xbd, 0x08, 0x81, 0xfd, 0x46, 0x0f, 0xdc, 0xed, 0xbd, 0x2e,
  0x13, 0x16, 0x2d, 0xde, 0xf8, 0x06, 0xc8, 0xa2, 0xf5, 0xe6, 0x71, 0xce,
  0xec, 0x07, 0x4b, 0x17, 0xd8, 0xc7, 0xab, 0xad, 0x4d, 0x34, 0xf7, 0xe3,
  0x5f, 0xf5, 0x26, 0xce, 0x24, 0x28, 0xcf, 0x79, 0xe0, 0x70, 0xf6, 0x7f,
  0x7f, 0xd5, 0x33, 0x47, 0xf9, 0x60, 0xb7, 0xf3, 0xb9, 0xeb, 0x1f, 0xd6,
  0xe8, 0x62, 0xf9, 0xea, 0x1e, 0x43, 0xfe, 0xcc, 0x55, 0xed, 0x15, 0xbb,
  0xeb, 0x12, 0x44, 0xe0, 0x44, 0x16, 0xe5, 0xc4, 0x45, 0x2d, 0xfb, 0xef,
  0xc0, 0x52, 0x1c, 0xb4, 0x61, 0x04, 0xc5, 0x21, 0xa8, 0x7f, 0x4b, 0xc1,
  0x47, 0xa9, 0x29, 0x19, 0xf5, 0x5b, 0x2c, 0xce, 0x3d, 0xb2, 0xf4, 0xc8,
  0xef, 0xec, 0x06, 0xe2, 0x71, 0x57, 0x18, 0x4f, 0xb5, 0x81, 0xe9, 0x69,
  0xd7, 0x01, 0xcb, 0x05, 0xca, 0x93, 0x29, 0xd7, 0x39, 0x0e, 0xb3, 0x8c,
  0xa9, 0x94, 0x2e, 0xf2, 0xb9, 0x68, 0xc4, 0x25, 0x4e, 0x92, 0xed, 0xa8,
  0x81, 0x03, 0x1b, 0x10, 0x35, 0xda, 0x0b, 0x02, 0xf7, 0xe5, 0x17, 0xee,
  0x18, 0x85, 0x00, 0xdb, 0x05, 0x20, 0xef, 0x07, 0xe1, 0xf0, 0xe8, 0x4b,
  0xff, 0x1a, 0xe1, 0x1d, 0xfa, 0x1a, 0x0a, 0x05, 0x4c, 0x28, 0x10, 0x2c,
  0x81, 0x18, 0x36, 0xf8, 0xfc, 0x14, 0x0a, 0x10, 0x2c, 0x71, 0x27, 0x1d,
  0xe1, 0x27, 0x07, 0xfa, 0x21, 0x27, 0xe6, 0xf6, 0xe6, 0x3b, 0xec, 0xc1,
  0xde, 0xc3, 0x1f, 0xd3, 0x97, 0xe4, 0x83, 0x90, 0xdc, 0x81, 0xc2, 0xce,
  0x42, 0x58, 0xef, 0xc1, 0x9f, 0xb0, 0x9c, 0x97, 0x35, 0x18, 0x5a, 0x39,
  0xc8, 0xa6, 0xe6, 0x07, 0xbf, 0x3a, 0xb3, 0x05, 0x33, 0x2c, 0x1c, 0x7e,
  0x5b, 0x1a, 0xb0, 0x3a, 0xdf, 0x54, 0xd7, 0xbc, 0x0e, 0xa8, 0x23, 0xbd,
  0x42, 0x11, 0x22, 0xef, 0x24, 0x4e, 0x34, 0x36, 0xd9, 0x28, 0x2b, 0xf9,
  0xb2, 0x5c, 0x7f, 0xfd, 0x43, 0x02, 0xb0, 0x3c, 0x46, 0xff, 0xff, 0xff,
  0x04, 0x00, 0x00, 0x00, 0x80, 0x00, 0x00, 0x00, 0x99, 0x12, 0x00, 0x00,
  0xbb, 0x09, 0x00, 0x00, 0x29, 0xe8, 0xff, 0xff, 0xdb, 0x12, 0x00, 0x00,
  0xab, 0x21, 0x00, 0x00, 0x15, 0xf1, 0xff, 0xff, 0x00, 0x00, 0x00, 0x00,
  0x90, 0x1c, 0x00, 0x00, 0x89, 0x15, 0x00, 0x00, 0x00, 0x00, 0x00, 0x00,
  0x3d, 0x19, 0x00, 0x00, 0x00, 0x00, 0x00, 0x00, 0x06, 0x0e, 0x00, 0x00,
  0x00, 0x00, 0x00, 0x00, 0x66, 0xe3, 0xff, 0xff, 0xd3, 0xfb, 0xff, 0xff,
  0xb5, 0x17, 0x00, 0x00, 0x00, 0x00, 0x00, 0x00, 0x26, 0x1a, 0x00, 0x00,
  0x23, 0x12, 0x00, 0x00, 0x17, 0xe3, 0xff, 0xff, 0x00, 0x00, 0x00, 0x00,
  0x12, 0xe7, 0xff, 0xff, 0x52, 0x12, 0x00, 0x00, 0x00, 0x00, 0x00, 0x00,
  0xa6, 0xe9, 0xff, 0xff, 0x4e, 0xe0, 0xff, 0xff, 0x00, 0x00, 0x00, 0x00,
  0x01, 0x24, 0x00, 0x00, 0x7c, 0xe3, 0xff, 0xff, 0x00, 0x00, 0x00, 0x00,
  0xde, 0xe7, 0xff, 0xff, 0xd2, 0xff, 0xff, 0xff, 0x04, 0x00, 0x00, 0x00,
  0x20, 0x00, 0x00, 0x00, 0xe7, 0xfd, 0x1e, 0xee, 0xa3, 0x09, 0xf0, 0xc4,
  0xf9, 0xfc, 0xe6, 0x05, 0xf8, 0x11, 0x14, 0x0e, 0xe1, 0xe4, 0x22, 0xe7,
  0x0e, 0x0b, 0x2c, 0xe0, 0x07, 0x23, 0x37, 0x03, 0x7f, 0x14, 0xe0, 0x3a,
  0x00, 0x00, 0x06, 0x00, 0x08, 0x00, 0x04, 0x00, 0x06, 0x00, 0x00, 0x00,
  0x04, 0x00, 0x00, 0x00, 0x04, 0x00, 0x00, 0x00, 0x9f, 0xf9, 0xff, 0xff,
  0xe4, 0xf2, 0xff, 0xff, 0xe8, 0xf2, 0xff, 0xff, 0x0f, 0x00, 0x00, 0x00,
  0x4d, 0x4c, 0x49, 0x52, 0x20, 0x43, 0x6f, 0x6e, 0x76, 0x65, 0x72, 0x74,
  0x65, 0x64, 0x2e, 0x00, 0x01, 0x00, 0x00, 0x00, 0x14, 0x00, 0x00, 0x00,
  0x00, 0x00, 0x0e, 0x00, 0x18, 0x00, 0x14, 0x00, 0x10, 0x00, 0x0c, 0x00,
  0x08, 0x00, 0x04, 0x00, 0x0e, 0x00, 0x00, 0x00, 0x14, 0x00, 0x00, 0x00,
  0x1c, 0x00, 0x00, 0x00, 0x40, 0x01, 0x00, 0x00, 0x44, 0x01, 0x00, 0x00,
  0x48, 0x01, 0x00, 0x00, 0x04, 0x00, 0x00, 0x00, 0x6d, 0x61, 0x69, 0x6e,
  0x00, 0x00, 0x00, 0x00, 0x05, 0x00, 0x00, 0x00, 0x08, 0x01, 0x00, 0x00,
  0xb8, 0x00, 0x00, 0x00, 0x6c, 0x00, 0x00, 0x00, 0x34, 0x00, 0x00, 0x00,
  0x10, 0x00, 0x00, 0x00, 0x00, 0x00, 0x0a, 0x00, 0x10, 0x00, 0x0c, 0x00,
  0x08, 0x00, 0x04, 0x00, 0x0a, 0x00, 0x00, 0x00, 0x0c, 0x00, 0x00, 0x00,
  0x10, 0x00, 0x00, 0x00, 0x02, 0x00, 0x00, 0x00, 0x01, 0x00, 0x00, 0x00,
  0x0b, 0x00, 0x00, 0x00, 0x01, 0x00, 0x00, 0x00, 0x0a, 0x00, 0x00, 0x00,
  0x92, 0xff, 0xff, 0xff, 0x14, 0x00, 0x00, 0x00, 0x00, 0x00, 0x00, 0x08,
  0x10, 0x00, 0x00, 0x00, 0x14, 0x00, 0x00, 0x00, 0x01, 0x00, 0x00, 0x00,
  0x98, 0xf3, 0xff, 0xff, 0x01, 0x00, 0x00, 0x00, 0x0a, 0x00, 0x00, 0x00,
  0x03, 0x00, 0x00, 0x00, 0x09, 0x00, 0x00, 0x00, 0x02, 0x00, 0x00, 0x00,
  0x01, 0x00, 0x00, 0x00, 0xc6, 0xff, 0xff, 0xff, 0x14, 0x00, 0x00, 0x00,
  0x00, 0x00, 0x00, 0x08, 0x14, 0x00, 0x00, 0x00, 0x18, 0x00, 0x00, 0x00,
  0x01, 0x00, 0x00, 0x00, 0xb6, 0xff, 0xff, 0xff, 0x00, 0x00, 0x00, 0x01,
  0x01, 0x00, 0x00, 0x00, 0x09, 0x00, 0x00, 0x00, 0x03, 0x00, 0x00, 0x00,
  0x08, 0x00, 0x00, 0x00, 0x04, 0x00, 0x00, 0x00, 0x03, 0x00, 0x00, 0x00,
  0x00, 0x00, 0x0e, 0x00, 0x1a, 0x00, 0x14, 0x00, 0x10, 0x00, 0x0c, 0x00,
  0x0b, 0x00, 0x04, 0x00, 0x0e, 0x00, 0x00, 0x00, 0x1c, 0x00, 0x00, 0x00,
  0x00, 0x00, 0x00, 0x08, 0x1c, 0x00, 0x00, 0x00, 0x20, 0x00, 0x00, 0x00,
  0x01, 0x00, 0x00, 0x00, 0x00, 0x00, 0x06, 0x00, 0x08, 0x00, 0x07, 0x00,
  0x06, 0x00, 0x00, 0x00, 0x00, 0x00, 0x00, 0x01, 0x01, 0x00, 0x00, 0x00,
  0x08, 0x00, 0x00, 0x00, 0x03, 0x00, 0x00, 0x00, 0x07, 0x00, 0x00, 0x00,
  0x06, 0x00, 0x00, 0x00, 0x05, 0x00, 0x00, 0x00, 0x00, 0x00, 0x0a, 0x00,
  0x0c, 0x00, 0x00, 0x00, 0x08, 0x00, 0x04, 0x00, 0x0a, 0x00, 0x00, 0x00,
  0x08, 0x00, 0x00, 0x00, 0x0c, 0x00, 0x00, 0x00, 0x01, 0x00, 0x00, 0x00,
  0x07, 0x00, 0x00, 0x00, 0x01, 0x00, 0x00, 0x00, 0x00, 0x00, 0x00, 0x00,
  0x01, 0x00, 0x00, 0x00, 0x0b, 0x00, 0x00, 0x00, 0x01, 0x00, 0x00, 0x00,
  0x00, 0x00, 0x00, 0x00, 0x0c, 0x00, 0x00, 0x00, 0x60, 0x0b, 0x00, 0x00,
  0xd8, 0x0a, 0x00, 0x00, 0x58, 0x0a, 0x00, 0x00, 0x84, 0x08, 0x00, 0x00,
  0xa8, 0x06, 0x00, 0x00, 0xd4, 0x04, 0x00, 0x00, 0xf8, 0x02, 0x00, 0x00,
  0x84, 0x02, 0x00, 0x00, 0xa8, 0x01, 0x00, 0x00, 0xe4, 0x00, 0x00, 0x00,
  0x60, 0x00, 0x00, 0x00, 0x04, 0x00, 0x00, 0x00, 0xe6, 0xf4, 0xff, 0xff,
  0x00, 0x00, 0x00, 0x01, 0x14, 0x00, 0x00, 0x00, 0x1c, 0x00, 0x00, 0x00,
  0x1c, 0x00, 0x00, 0x00, 0x0c, 0x00, 0x00, 0x00, 0x34, 0x00, 0x00, 0x00,
  0x02, 0x00, 0x00, 0x00, 0xff, 0xff, 0xff, 0xff, 0x01, 0x00, 0x00, 0x00,
  0xd0, 0xf4, 0xff, 0xff, 0x1b, 0x00, 0x00, 0x00, 0x53, 0x74, 0x61, 0x74,
  0x65, 0x66, 0x75, 0x6c, 0x50, 0x61, 0x72, 0x74, 0x69, 0x74, 0x69, 0x6f,
  0x6e, 0x65, 0x64, 0x43, 0x61, 0x6c, 0x6c, 0x5f, 0x31, 0x3a, 0x30, 0x00,
  0x02, 0x00, 0x00, 0x00, 0x01, 0x00, 0x00, 0x00, 0x01, 0x00, 0x00, 0x00,
  0xfe, 0xfd, 0xff, 0xff, 0x00, 0x00, 0x00, 0x01, 0x18, 0x00, 0x00, 0x00,
  0x20, 0x00, 0x00, 0x00, 0x40, 0x00, 0x00, 0x00, 0x0b, 0x00, 0x00, 0x00,
  0x00, 0x00, 0x00, 0x09, 0x58, 0x00, 0x00, 0x00, 0x02, 0x00, 0x00, 0x00,
  0xff, 0xff, 0xff, 0xff, 0x01, 0x00, 0x00, 0x00, 0xbc, 0xf5, 0xff, 0xff,
  0x08, 0x00, 0x00, 0x00, 0x14, 0x00, 0x00, 0x00, 0x01, 0x00, 0x00, 0x00,
  0x05, 0x00, 0x00, 0x00, 0x00, 0x00, 0x00, 0x00, 0x00, 0x00, 0x00, 0x00,
  0x01, 0x00, 0x00, 0x00, 0xbf, 0x6a, 0x09, 0x3c, 0x1c, 0x00, 0x00, 0x00,
  0x53, 0x74, 0x61, 0x74, 0x65, 0x66, 0x75, 0x6c, 0x50, 0x61, 0x72, 0x74,
  0x69, 0x74, 0x69, 0x6f, 0x6e, 0x65, 0x64, 0x43, 0x61, 0x6c, 0x6c, 0x5f,
  0x31, 0x3a, 0x30, 0x31, 0x00, 0x00, 0x00, 0x00, 0x02, 0x00, 0x00, 0x00,
  0x01, 0x00, 0x00, 0x00, 0x01, 0x00, 0x00, 0x00, 0x7e, 0xfe, 0xff, 0xff,
  0x00, 0x00, 0x00, 0x01, 0x18, 0x00, 0x00, 0x00, 0x20, 0x00, 0x00, 0x00,
  0x40, 0x00, 0x00, 0x00, 0x0a, 0x00, 0x00, 0x00, 0x00, 0x00, 0x00, 0x09,
  0x98, 0x00, 0x00, 0x00, 0x02, 0x00, 0x00, 0x00, 0xff, 0xff, 0xff, 0xff,
  0x20, 0x00, 0x00, 0x00, 0x3c, 0xf6, 0xff, 0xff, 0x08, 0x00, 0x00, 0x00,
  0x14, 0x00, 0x00, 0x00, 0x01, 0x00, 0x00, 0x00, 0x80, 0xff, 0xff, 0xff,
  0xff, 0xff, 0xff, 0xff, 0x00, 0x00, 0x00, 0x00, 0x01, 0x00, 0x00, 0x00,
  0x9f, 0x28, 0x1f, 0x3c, 0x5d, 0x00, 0x00, 0x00, 0x73, 0x65, 0x71, 0x75,
  0x65, 0x6e, 0x74, 0x69, 0x61, 0x6c, 0x5f, 0x36, 0x5f, 0x31, 0x2f, 0x64,
  0x65, 0x6e, 0x73, 0x65, 0x5f, 0x31, 0x37, 0x5f, 0x31, 0x2f, 0x4d, 0x61,
  0x74, 0x4d, 0x75, 0x6c, 0x3b, 0x73, 0x65, 0x71, 0x75, 0x65, 0x6e, 0x74,
  0x69, 0x61, 0x6c, 0x5f, 0x36, 0x5f, 0x31, 0x2f, 0x64, 0x65, 0x6e, 0x73,
  0x65, 0x5f, 0x31, 0x37, 0x5f, 0x31, 0x2f, 0x52, 0x65, 0x6c, 0x75, 0x3b,
  0x73, 0x65, 0x71, 0x75, 0x65, 0x6e, 0x74, 0x69, 0x61, 0x6c, 0x5f, 0x36,
  0x5f, 0x31, 0x2f, 0x64, 0x65, 0x6e, 0x73, 0x65, 0x5f, 0x31, 0x37, 0x5f,
  0x31, 0x2f, 0x41, 0x64, 0x64, 0x00, 0x00, 0x00, 0x02, 0x00, 0x00, 0x00,
  0x01, 0x00, 0x00, 0x00, 0x20, 0x00, 0x00, 0x00, 0x3e, 0xff, 0xff, 0xff,
  0x00, 0x00, 0x00, 0x01, 0x18, 0x00, 0x00, 0x00, 0x20, 0x00, 0x00, 0x00,
  0x40, 0x00, 0x00, 0x00, 0x09, 0x00, 0x00, 0x00, 0x00, 0x00, 0x00, 0x09,
  0x98, 0x00, 0x00, 0x00, 0x02, 0x00, 0x00, 0x00, 0xff, 0xff, 0xff, 0xff,
  0x20, 0x00, 0x00, 0x00, 0xfc, 0xf6, 0xff, 0xff, 0x08, 0x00, 0x00, 0x00,
  0x14, 0x00, 0x00, 0x00, 0x01, 0x00, 0x00, 0x00, 0x80, 0xff, 0xff, 0xff,
  0xff, 0xff, 0xff, 0xff, 0x00, 0x00, 0x00, 0x00, 0x01, 0x00, 0x00, 0x00,
  0xb6, 0x13, 0x1f, 0x3c, 0x5d, 0x00, 0x00, 0x00, 0x73, 0x65, 0x71, 0x75,
  0x65, 0x6e, 0x74, 0x69, 0x61, 0x6c, 0x5f, 0x36, 0x5f, 0x31, 0x2f, 0x64,
  0x65, 0x6e, 0x73, 0x65, 0x5f, 0x31, 0x36, 0x5f, 0x31, 0x2f, 0x4d, 0x61,
  0x74, 0x4d, 0x75, 0x6c, 0x3b, 0x73, 0x65, 0x71, 0x75, 0x65, 0x6e, 0x74,
  0x69, 0x61, 0x6c, 0x5f, 0x36, 0x5f, 0x31, 0x2f, 0x64, 0x65, 0x6e, 0x73,
  0x65, 0x5f, 0x31, 0x36, 0x5f, 0x31, 0x2f, 0x52, 0x65, 0x6c, 0x75, 0x3b,
  0x73, 0x65, 0x71, 0x75, 0x65, 0x6e, 0x74, 0x69, 0x61, 0x6c, 0x5f, 0x36,
  0x5f, 0x31, 0x2f, 0x64, 0x65, 0x6e, 0x73, 0x65, 0x5f, 0x31, 0x36, 0x5f,
  0x31, 0x2f, 0x41, 0x64, 0x64, 0x00, 0x00, 0x00, 0x02, 0x00, 0x00, 0x00,
  0x01, 0x00, 0x00, 0x00, 0x20, 0x00, 0x00, 0x00, 0x00, 0x00, 0x16, 0x00,
  0x20, 0x00, 0x1c, 0x00, 0x1b, 0x00, 0x14, 0x00, 0x10, 0x00, 0x0c, 0x00,
  0x00, 0x00, 0x00, 0x00, 0x08, 0x00, 0x07, 0x00, 0x16, 0x00, 0x00, 0x00,
  0x00, 0x00, 0x00, 0x01, 0x18, 0x00, 0x00, 0x00, 0x20, 0x00, 0x00, 0x00,
  0x40, 0x00, 0x00, 0x00, 0x08, 0x00, 0x00, 0x00, 0x00, 0x00, 0x00, 0x09,
  0x48, 0x00, 0x00, 0x00, 0x02, 0x00, 0x00, 0x00, 0xff, 0xff, 0xff, 0xff,
  0x01, 0x00, 0x00, 0x00, 0xd4, 0xf7, 0xff, 0xff, 0x08, 0x00, 0x00, 0x00,
  0x14, 0x00, 0x00, 0x00, 0x01, 0x00, 0x00, 0x00, 0x80, 0xff, 0xff, 0xff,
  0xff, 0xff, 0xff, 0xff, 0x00, 0x00, 0x00, 0x00, 0x01, 0x00, 0x00, 0x00,
  0x5d, 0x4f, 0xc9, 0x3c, 0x0c, 0x00, 0x00, 0x00, 0x74, 0x66, 0x6c, 0x2e,
  0x71, 0x75, 0x61, 0x6e, 0x74, 0x69, 0x7a, 0x65, 0x00, 0x00, 0x00, 0x00,
  0x02, 0x00, 0x00, 0x00, 0x01, 0x00, 0x00, 0x00, 0x01, 0x00, 0x00, 0x00,
  0x4a, 0xf8, 0xff, 0xff, 0x00, 0x00, 0x00, 0x01, 0x14, 0x00, 0x00, 0x00,
  0xa8, 0x01, 0x00, 0x00, 0x07, 0x00, 0x00, 0x00, 0x00, 0x00, 0x00, 0x09,
  0xb4, 0x01, 0x00, 0x00, 0x34, 0xf8, 0xff, 0xff, 0x08, 0x00, 0x00, 0x00,
  0x0c, 0x01, 0x00, 0x00, 0x20, 0x00, 0x00, 0x00, 0x00, 0x00, 0x00, 0x00,
  0x00, 0x00, 0x00, 0x00, 0x00, 0x00, 0x00, 0x00, 0x00, 0x00, 0x00, 0x00,
  0x00, 0x00, 0x00, 0x00, 0x00, 0x00, 0x00, 0x00, 0x00, 0x00, 0x00, 0x00,
  0x00, 0x00, 0x00, 0x00, 0x00, 0x00, 0x00, 0x00, 0x00, 0x00, 0x00, 0x00,
  0x00, 0x00, 0x00, 0x00, 0x00, 0x00, 0x00, 0x00, 0x00, 0x00, 0x00, 0x00,
  0x00, 0x00, 0x00, 0x00, 0x00, 0x00, 0x00, 0x00, 0x00, 0x00, 0x00, 0x00,
  0x00, 0x00, 0x00, 0x00, 0x00, 0x00, 0x00, 0x00, 0x00, 0x00, 0x00, 0x00,
  0x00, 0x00, 0x00, 0x00, 0x00, 0x00, 0x00, 0x00, 0x00, 0x00, 0x00, 0x00,
  0x00, 0x00, 0x00, 0x00, 0x00, 0x00, 0x00, 0x00, 0x00, 0x00, 0x00, 0x00,
  0x00, 0x00, 0x00, 0x00, 0x00, 0x00, 0x00, 0x00, 0x00, 0x00, 0x00, 0x00,
  0x00, 0x00, 0x00, 0x00, 0x00, 0x00, 0x00, 0x00, 0x00, 0x00, 0x00, 0x00,
  0x00, 0x00, 0x00, 0x00, 0x00, 0x00, 0x00, 0x00, 0x00, 0x00, 0x00, 0x00,
  0x00, 0x00, 0x00, 0x00, 0x00, 0x00, 0x00, 0x00, 0x00, 0x00, 0x00, 0x00,
  0x00, 0x00, 0x00, 0x00, 0x00, 0x00, 0x00, 0x00, 0x00, 0x00, 0x00, 0x00,
  0x00, 0x00, 0x00, 0x00, 0x00, 0x00, 0x00, 0x00, 0x00, 0x00, 0x00, 0x00,
  0x00, 0x00, 0x00, 0x00, 0x00, 0x00, 0x00, 0x00, 0x00, 0x00, 0x00, 0x00,
  0x00, 0x00, 0x00, 0x00, 0x00, 0x00, 0x00, 0x00, 0x00, 0x00, 0x00, 0x00,
  0x00, 0x00, 0x00, 0x00, 0x00, 0x00, 0x00, 0x00, 0x00, 0x00, 0x00, 0x00,
  0x00, 0x00, 0x00, 0x00, 0x00, 0x00, 0x00, 0x00, 0x00, 0x00, 0x00, 0x00,
  0x00, 0x00, 0x00, 0x00, 0x00, 0x00, 0x00, 0x00, 0x00, 0x00, 0x00, 0x00,
  0x00, 0x00, 0x00, 0x00, 0x00, 0x00, 0x00, 0x00, 0x00, 0x00, 0x00, 0x00,
  0x00, 0x00, 0x00, 0x00, 0x00, 0x00, 0x00, 0x00, 0x00, 0x00, 0x00, 0x00,
  0x00, 0x00, 0x00, 0x00, 0x20, 0x00, 0x00, 0x00, 0x8a, 0xaf, 0xae, 0x3a,
  0xf3, 0x47, 0x32, 0x3b, 0xb9, 0xc0, 0x35, 0x3b, 0xdb, 0xe9, 0x18, 0x3b,
  0x4a, 0xf4, 0x1a, 0x3a, 0x25, 0x8e, 0x63, 0x3b, 0x5f, 0x74, 0x8c, 0x3a,
  0x30, 0x95, 0x2b, 0x3b, 0xa6, 0xaa, 0x20, 0x3b, 0xe8, 0xce, 0xd6, 0x3a,
  0xf2, 0xbe, 0x82, 0x3a, 0xb9, 0x70, 0x29, 0x3b, 0x37, 0xdd, 0xc8, 0x3a,
  0x60, 0xb2, 0xee, 0x3a, 0xe8, 0x83, 0x0f, 0x39, 0xe1, 0x3a, 0x0f, 0x3b,
  0xb9, 0xa0, 0x44, 0x3b, 0xa8, 0xfb, 0x2a, 0x3b, 0x75, 0xd6, 0xe7, 0x39,
  0xf5, 0x08, 0x5b, 0x3a, 0x9a, 0xdd, 0x35, 0x3b, 0x9d, 0x5c, 0x42, 0x3b,
  0xd6, 0xfd, 0x11, 0x3b, 0xdb, 0x63, 0xe3, 0x38, 0x8a, 0xa7, 0xf2, 0x3a,
  0x74, 0x7f, 0xf1, 0x3a, 0x8a, 0xb7, 0x13, 0x3b, 0x55, 0x54, 0x06, 0x3b,
  0x2c, 0xba, 0xae, 0x39, 0x41, 0xdc, 0x55, 0x3b, 0x67, 0xa1, 0x23, 0x3a,
  0x1a, 0xbc, 0xbc, 0x3a, 0x12, 0x00, 0x00, 0x00, 0x74, 0x66, 0x6c, 0x2e,
  0x70, 0x73, 0x65, 0x75, 0x64, 0x6f, 0x5f, 0x71, 0x63, 0x6f, 0x6e, 0x73,
  0x74, 0x35, 0x00, 0x00, 0x02, 0x00, 0x00, 0x00, 0x20, 0x00, 0x00, 0x00,
  0x01, 0x00, 0x00, 0x00, 0x22, 0xfa, 0xff, 0xff, 0x00, 0x00, 0x00, 0x01,
  0x14, 0x00, 0x00, 0x00, 0xa4, 0x01, 0x00, 0x00, 0x06, 0x00, 0x00, 0x00,
  0x00, 0x00, 0x00, 0x02, 0xb0, 0x01, 0x00, 0x00, 0x0c, 0xfa, 0xff, 0xff,
  0x08, 0x00, 0x00, 0x00, 0x08, 0x01, 0x00, 0x00, 0x20, 0x00, 0x00, 0x00,
  0x00, 0x00, 0x00, 0x00, 0x00, 0x00, 0x00, 0x00, 0x00, 0x00, 0x00, 0x00,
  0x00, 0x00, 0x00, 0x00, 0x00, 0x00, 0x00, 0x00, 0x00, 0x00, 0x00, 0x00,
  0x00, 0x00, 0x00, 0x00, 0x00, 0x00, 0x00, 0x00, 0x00, 0x00, 0x00, 0x00,
  0x00, 0x00, 0x00, 0x00, 0x00, 0x00, 0x00, 0x00, 0x00, 0x00, 0x00, 0x00,
  0x00, 0x00, 0x00, 0x00, 0x00, 0x00, 0x00, 0x00, 0x00, 0x00, 0x00, 0x00,
  0x00, 0x00, 0x00, 0x00, 0x00, 0x00, 0x00, 0x00, 0x00, 0x00, 0x00, 0x00,
  0x00, 0x00, 0x00, 0x00, 0x00, 0x00, 0x00, 0x00, 0x00, 0x00, 0x00, 0x00,
  0x00, 0x00, 0x00, 0x00, 0x00, 0x00, 0x00, 0x00, 0x00, 0x00, 0x00, 0x00,
  0x00, 0x00, 0x00, 0x00, 0x00, 0x00, 0x00, 0x00, 0x00, 0x00, 0x00, 0x00,
  0x00, 0x00, 0x00, 0x00, 0x00, 0x00, 0x00, 0x00, 0x00, 0x00, 0x00, 0x00,
  0x00, 0x00, 0x00, 0x00, 0x00, 0x00, 0x00, 0x00, 0x00, 0x00, 0x00, 0x00,
  0x00, 0x00, 0x00, 0x00, 0x00, 0x00, 0x00, 0x00, 0x00, 0x00, 0x00, 0x00,
  0x00, 0x00, 0x00, 0x00, 0x00, 0x00, 0x00, 0x00, 0x00, 0x00, 0x00, 0x00,
  0x00, 0x00, 0x00, 0x00, 0x00, 0x00, 0x00, 0x00, 0x00, 0x00, 0x00, 0x00,
  0x00, 0x00, 0x00, 0x00, 0x00, 0x00, 0x00, 0x00, 0x00, 0x00, 0x00, 0x00,
  0x00, 0x00, 0x00, 0x00, 0x00, 0x00, 0x00, 0x00, 0x00, 0x00, 0x00, 0x00,
  0x00, 0x00, 0x00, 0x00, 0x00, 0x00, 0x00, 0x00, 0x00, 0x00, 0x00, 0x00,
  0x00, 0x00, 0x00, 0x00, 0x00, 0x00, 0x00, 0x00, 0x00, 0x00, 0x00, 0x00,
  0x00, 0x00, 0x00, 0x00, 0x00, 0x00, 0x00, 0x00, 0x00, 0x00, 0x00, 0x00,
  0x00, 0x00, 0x00, 0x00, 0x00, 0x00, 0x00, 0x00, 0x00, 0x00, 0x00, 0x00,
  0x00, 0x00, 0x00, 0x00, 0x00, 0x00, 0x00, 0x00, 0x00, 0x00, 0x00, 0x00,
  0x00, 0x00, 0x00, 0x00, 0x20, 0x00, 0x00, 0x00, 0xfb, 0x5d, 0x09, 0x38,
  0xc3, 0x31, 0x8c, 0x38, 0xaa, 0xec, 0x8e, 0x38, 0x09, 0x7e, 0x70, 0x38,
  0xb0, 0xb3, 0x73, 0x37, 0x27, 0xf1, 0xb2, 0x38, 0xd3, 0xe5, 0xdc, 0x37,
  0x54, 0xed, 0x86, 0x38, 0x97, 0xaf, 0x7c, 0x38, 0x0c, 0xeb, 0x28, 0x38,
  0xe9, 0xa0, 0xcd, 0x37, 0x09, 0x3e, 0x85, 0x38, 0xf5, 0xf3, 0x1d, 0x38,
  0x0d, 0xb4, 0x3b, 0x38, 0x1e, 0xb6, 0x61, 0x36, 0x44, 0x43, 0x61, 0x38,
  0x26, 0x9f, 0x9a, 0x38, 0x99, 0x74, 0x86, 0x38, 0x41, 0x4f, 0x36, 0x37,
  0xf0, 0x3d, 0xac, 0x37, 0x5f, 0x03, 0x8f, 0x38, 0xf8, 0xd6, 0x98, 0x38,
  0x1f, 0x9b, 0x65, 0x38, 0xe5, 0xcf, 0x32, 0x36, 0xc5, 0xd0, 0x3e, 0x38,
  0xf0, 0xe7, 0x3d, 0x38, 0xcd, 0x51, 0x68, 0x38, 0xb7, 0x43, 0x53, 0x38,
  0x57, 0x66, 0x09, 0x37, 0x3c, 0x2c, 0xa8, 0x38, 0x74, 0xac, 0x80, 0x37,
  0x33, 0x6a, 0x14, 0x38, 0x12, 0x00, 0x00, 0x00, 0x74, 0x66, 0x6c, 0x2e,
  0x70, 0x73, 0x65, 0x75, 0x64, 0x6f, 0x5f, 0x71, 0x63, 0x6f, 0x6e, 0x73,
  0x74, 0x34, 0x00, 0x00, 0x01, 0x00, 0x00, 0x00, 0x20, 0x00, 0x00, 0x00,
  0xf2, 0xfb, 0xff, 0xff, 0x00, 0x00, 0x00, 0x01, 0x14, 0x00, 0x00, 0x00,
  0xa8, 0x01, 0x00, 0x00, 0x05, 0x00, 0x00, 0x00, 0x00, 0x00, 0x00, 0x09,
  0xb4, 0x01, 0x00, 0x00, 0xdc, 0xfb, 0xff, 0xff, 0x08, 0x00, 0x00, 0x00,
  0x0c, 0x01, 0x00, 0x00, 0x20, 0x00, 0x00, 0x00, 0x00, 0x00, 0x00, 0x00,
  0x00, 0x00, 0x00, 0x00, 0x00, 0x00, 0x00, 0x00, 0x00, 0x00, 0x00, 0x00,
  0x00, 0x00, 0x00, 0x00, 0x00, 0x00, 0x00, 0x00, 0x00, 0x00, 0x00, 0x00,
  0x00, 0x00, 0x00, 0x00, 0x00, 0x00, 0x00, 0x00, 0x00, 0x00, 0x00, 0x00,
  0x00, 0x00, 0x00, 0x00, 0x00, 0x00, 0x00, 0x00, 0x00, 0x00, 0x00, 0x00,
  0x00, 0x00, 0x00, 0x00, 0x00, 0x00, 0x00, 0x00, 0x00, 0x00, 0x00, 0x00,
  0x00, 0x00, 0x00, 0x00, 0x00, 0x00, 0x00, 0x00, 0x00, 0x00, 0x00, 0x00,
  0x00, 0x00, 0x00, 0x00, 0x00, 0x00, 0x00, 0x00, 0x00, 0x00, 0x00, 0x00,
  0x00, 0x00, 0x00, 0x00, 0x00, 0x00, 0x00, 0x00, 0x00, 0x00, 0x00, 0x00,
  0x00, 0x00, 0x00, 0x00, 0x00, 0x00, 0x00, 0x00, 0x00, 0x00, 0x00, 0x00,
  0x00, 0x00, 0x00, 0x00, 0x00, 0x00, 0x00, 0x00, 0x00, 0x00, 0x00, 0x00,
  0x00, 0x00, 0x00, 0x00, 0x00, 0x00, 0x00, 0x00, 0x00, 0x00, 0x00, 0x00,
  0x00, 0x00, 0x00, 0x00, 0x00, 0x00, 0x00, 0x00, 0x00, 0x00, 0x00, 0x00,
  0x00, 0x00, 0x00, 0x00, 0x00, 0x00, 0x00, 0x00, 0x00, 0x00, 0x00, 0x00,
  0x00, 0x00, 0x00, 0x00, 0x00, 0x00, 0x00, 0x00, 0x00, 0x00, 0x00, 0x00,
  0x00, 0x00, 0x00, 0x00, 0x00, 0x00, 0x00, 0x00, 0x00, 0x00, 0x00, 0x00,
  0x00, 0x00, 0x00, 0x00, 0x00, 0x00, 0x00, 0x00, 0x00, 0x00, 0x00, 0x00,
  0x00, 0x00, 0x00, 0x00, 0x00, 0x00, 0x00, 0x00, 0x00, 0x00, 0x00, 0x00,
  0x00, 0x00, 0x00, 0x00, 0x00, 0x00, 0x00, 0x00, 0x00, 0x00, 0x00, 0x00,
  0x00, 0x00, 0x00, 0x00, 0x00, 0x00, 0x00, 0x00, 0x00, 0x00, 0x00, 0x00,
  0x00, 0x00, 0x00, 0x00, 0x00, 0x00, 0x00, 0x00, 0x00, 0x00, 0x00, 0x00,
  0x00, 0x00, 0x00, 0x00, 0x00, 0x00, 0x00, 0x00, 0x00, 0x00, 0x00, 0x00,
  0x00, 0x00, 0x00, 0x00, 0x20, 0x00, 0x00, 0x00, 0xda, 0x07, 0x41, 0x3b,
  0xfd, 0xb0, 0x1a, 0x3b, 0xb2, 0x81, 0x4a, 0x3b, 0x09, 0x37, 0x38, 0x3b,
  0xf8, 0x4b, 0xd7, 0x3b, 0x10, 0x10, 0x14, 0x3b, 0x9b, 0xcf, 0x17, 0x3b,
  0x72, 0x3f, 0x76, 0x3b, 0xcc, 0x5e, 0x44, 0x3b, 0x0f, 0x8e, 0x19, 0x3b,
  0xe6, 0xb3, 0x15, 0x3b, 0x2c, 0xe6, 0x16, 0x3b, 0x5f, 0xde, 0x52, 0x3b,
  0x8e, 0x1b, 0x1c, 0x3b, 0xce, 0xfd, 0x9c, 0x3b, 0x39, 0x1b, 0x1c, 0x3b,
  0xf0, 0x72, 0x42, 0x3b, 0xb4, 0xa7, 0x1c, 0x3b, 0xd5, 0x6b, 0x38, 0x3b,
  0x72, 0x5e, 0x3e, 0x3b, 0x81, 0x3a, 0x52, 0x3b, 0x70, 0x42, 0x1d, 0x3b,
  0x3b, 0x30, 0x70, 0x3b, 0xcb, 0x2d, 0x86, 0x3b, 0x29, 0xfc, 0x15, 0x3b,
  0xf8, 0x38, 0x70, 0x3b, 0x5d, 0x5a, 0x5c, 0x3b, 0xbf, 0xf8, 0x1d, 0x3b,
  0xee, 0x6c, 0x15, 0x3c, 0x10, 0x6e, 0x92, 0x3b, 0x61, 0xf8, 0x14, 0x3b,
  0xe5, 0x46, 0x58, 0x3b, 0x12, 0x00, 0x00, 0x00, 0x74, 0x66, 0x6c, 0x2e,
  0x70, 0x73, 0x65, 0x75, 0x64, 0x6f, 0x5f, 0x71, 0x63, 0x6f, 0x6e, 0x73,
  0x74, 0x33, 0x00, 0x00, 0x02, 0x00, 0x00, 0x00, 0x20, 0x00, 0x00, 0x00,
  0x20, 0x00, 0x00, 0x00, 0xca, 0xfd, 0xff, 0xff, 0x00, 0x00, 0x00, 0x01,
  0x14, 0x00, 0x00, 0x00, 0xa4, 0x01, 0x00, 0x00, 0x04, 0x00, 0x00, 0x00,
  0x00, 0x00, 0x00, 0x02, 0xb0, 0x01, 0x00, 0x00, 0xb4, 0xfd, 0xff, 0xff,
  0x08, 0x00, 0x00, 0x00, 0x08, 0x01, 0x00, 0x00, 0x20, 0x00, 0x00, 0x00,
  0x00, 0x00, 0x00, 0x00, 0x00, 0x00, 0x00, 0x00, 0x00, 0x00, 0x00, 0x00,
  0x00, 0x00, 0x00, 0x00, 0x00, 0x00, 0x00, 0x00, 0x00, 0x00, 0x00, 0x00,
  0x00, 0x00, 0x00, 0x00, 0x00, 0x00, 0x00, 0x00, 0x00, 0x00, 0x00, 0x00,
  0x00, 0x00, 0x00, 0x00, 0x00, 0x00, 0x00, 0x00, 0x00, 0x00, 0x00, 0x00,
  0x00, 0x00, 0x00, 0x00, 0x00, 0x00, 0x00, 0x00, 0x00, 0x00, 0x00, 0x00,
  0x00, 0x00, 0x00, 0x00, 0x00, 0x00, 0x00, 0x00, 0x00, 0x00, 0x00, 0x00,
  0x00, 0x00, 0x00, 0x00, 0x00, 0x00, 0x00, 0x00, 0x00, 0x00, 0x00, 0x00,
  0x00, 0x00, 0x00, 0x00, 0x00, 0x00, 0x00, 0x00, 0x00, 0x00, 0x00, 0x00,
  0x00, 0x00, 0x00, 0x00, 0x00, 0x00, 0x00, 0x00, 0x00, 0x00, 0x00, 0x00,
  0x00, 0x00, 0x00, 0x00, 0x00, 0x00, 0x00, 0x00, 0x00, 0x00, 0x00, 0x00,
  0x00, 0x00, 0x00, 0x00, 0x00, 0x00, 0x00, 0x00, 0x00, 0x00, 0x00, 0x00,
  0x00, 0x00, 0x00, 0x00, 0x00, 0x00, 0x00, 0x00, 0x00, 0x00, 0x00, 0x00,
  0x00, 0x00, 0x00, 0x00, 0x00, 0x00, 0x00, 0x00, 0x00, 0x00, 0x00, 0x00,
  0x00, 0x00, 0x00, 0x00, 0x00, 0x00, 0x00, 0x00, 0x00, 0x00, 0x00, 0x00,
  0x00, 0x00, 0x00, 0x00, 0x00, 0x00, 0x00, 0x00, 0x00, 0x00, 0x00, 0x00,
  0x00, 0x00, 0x00, 0x00, 0x00, 0x00, 0x00, 0x00, 0x00, 0x00, 0x00, 0x00,
  0x00, 0x00, 0x00, 0x00, 0x00, 0x00, 0x00, 0x00, 0x00, 0x00, 0x00, 0x00,
  0x00, 0x00, 0x00, 0x00, 0x00, 0x00, 0x00, 0x00, 0x00, 0x00, 0x00, 0x00,
  0x00, 0x00, 0x00, 0x00, 0x00, 0x00, 0x00, 0x00, 0x00, 0x00, 0x00, 0x00,
  0x00, 0x00, 0x00, 0x00, 0x00, 0x00, 0x00, 0x00, 0x00, 0x00, 0x00, 0x00,
  0x00, 0x00, 0x00, 0x00, 0x00, 0x00, 0x00, 0x00, 0x00, 0x00, 0x00, 0x00,
  0x00, 0x00, 0x00, 0x00, 0x20, 0x00, 0x00, 0x00, 0x7a, 0xe5, 0xef, 0x37,
  0xac, 0x3f, 0xc0, 0x37, 0x4a, 0xac, 0xfb, 0x37, 0xbb, 0xf0, 0xe4, 0x37,
  0xc3, 0xc8, 0x85, 0x38, 0xc1, 0x02, 0xb8, 0x37, 0x43, 0xab, 0xbc, 0x37,
  0x5e, 0x04, 0x19, 0x38, 0xff, 0x0b, 0xf4, 0x37, 0x1c, 0xd6, 0xbe, 0x37,
  0x85, 0x0c, 0xba, 0x37, 0x27, 0x89, 0xbb, 0x37, 0x59, 0x08, 0x03, 0x38,
  0x44, 0x02, 0xc2, 0x37, 0x73, 0x1b, 0x43, 0x38, 0xdb, 0x01, 0xc2, 0x37,
  0xb8, 0xa8, 0xf1, 0x37, 0x71, 0xb0, 0xc2, 0x37, 0x59, 0x32, 0xe5, 0x37,
  0xa2, 0x96, 0xec, 0x37, 0x86, 0xa2, 0x02, 0x38, 0xbf, 0x70, 0xc3, 0x37,
  0x73, 0x40, 0x15, 0x38, 0x8c, 0xc1, 0x26, 0x38, 0x54, 0x66, 0xba, 0x37,
  0xe1, 0x45, 0x15, 0x38, 0x17, 0xed, 0x08, 0x38, 0x51, 0x53, 0xc4, 0x37,
  0x52, 0xb4, 0xb9, 0x38, 0x44, 0xfb, 0x35, 0x38, 0x79, 0x23, 0xb9, 0x37,
  0xaf, 0x64, 0x06, 0x38, 0x12, 0x00, 0x00, 0x00, 0x74, 0x66, 0x6c, 0x2e,
  0x70, 0x73, 0x65, 0x75, 0x64, 0x6f, 0x5f, 0x71, 0x63, 0x6f, 0x6e, 0x73,
  0x74, 0x32, 0x00, 0x00, 0x01, 0x00, 0x00, 0x00, 0x20, 0x00, 0x00, 0x00,
  0x9a, 0xff, 0xff, 0xff, 0x00, 0x00, 0x00, 0x01, 0x14, 0x00, 0x00, 0x00,
  0x34, 0x00, 0x00, 0x00, 0x03, 0x00, 0x00, 0x00, 0x00, 0x00, 0x00, 0x09,
  0x40, 0x00, 0x00, 0x00, 0x84, 0xff, 0xff, 0xff, 0x08, 0x00, 0x00, 0x00,
  0x14, 0x00, 0x00, 0x00, 0x01, 0x00, 0x00, 0x00, 0x00, 0x00, 0x00, 0x00,
  0x00, 0x00, 0x00, 0x00, 0x00, 0x00, 0x00, 0x00, 0x01, 0x00, 0x00, 0x00,
  0x56, 0xb3, 0x49, 0x3c, 0x12, 0x00, 0x00, 0x00, 0x74, 0x66, 0x6c, 0x2e,
  0x70, 0x73, 0x65, 0x75, 0x64, 0x6f, 0x5f, 0x71, 0x63, 0x6f, 0x6e, 0x73,
  0x74, 0x31, 0x00, 0x00, 0x02, 0x00, 0x00, 0x00, 0x01, 0x00, 0x00, 0x00,
  0x20, 0x00, 0x00, 0x00, 0x00, 0x00, 0x16, 0x00, 0x1c, 0x00, 0x18, 0x00,
  0x17, 0x00, 0x10, 0x00, 0x0c, 0x00, 0x08, 0x00, 0x00, 0x00, 0x00, 0x00,
  0x00, 0x00, 0x07, 0x00, 0x16, 0x00, 0x00, 0x00, 0x00, 0x00, 0x00, 0x01,
  0x20, 0x00, 0x00, 0x00, 0x40, 0x00, 0x00, 0x00, 0x02, 0x00, 0x00, 0x00,
  0x00, 0x00, 0x00, 0x02, 0x4c, 0x00, 0x00, 0x00, 0x0c, 0x00, 0x0c, 0x00,
  0x00, 0x00, 0x00, 0x00, 0x08, 0x00, 0x04, 0x00, 0x0c, 0x00, 0x00, 0x00,
  0x08, 0x00, 0x00, 0x00, 0x14, 0x00, 0x00, 0x00, 0x01, 0x00, 0x00, 0x00,
  0x00, 0x00, 0x00, 0x00, 0x00, 0x00, 0x00, 0x00, 0x00, 0x00, 0x00, 0x00,
  0x01, 0x00, 0x00, 0x00, 0xc7, 0xcc, 0xfa, 0x38, 0x11, 0x00, 0x00, 0x00,
  0x74, 0x66, 0x6c, 0x2e, 0x70, 0x73, 0x65, 0x75, 0x64, 0x6f, 0x5f, 0x71,
  0x63, 0x6f, 0x6e, 0x73, 0x74, 0x00, 0x00, 0x00, 0x01, 0x00, 0x00, 0x00,
  0x01, 0x00, 0x00, 0x00, 0x00, 0x00, 0x16, 0x00, 0x1c, 0x00, 0x18, 0x00,
  0x00, 0x00, 0x14, 0x00, 0x10, 0x00, 0x0c, 0x00, 0x00, 0x00, 0x00, 0x00,
  0x08, 0x00, 0x07, 0x00, 0x16, 0x00, 0x00, 0x00, 0x00, 0x00, 0x00, 0x01,
  0x14, 0x00, 0x00, 0x00, 0x20, 0x00, 0x00, 0x00, 0x20, 0x00, 0x00, 0x00,
  0x01, 0x00, 0x00, 0x00, 0x3c, 0x00, 0x00, 0x00, 0x02, 0x00, 0x00, 0x00,
  0xff, 0xff, 0xff, 0xff, 0x01, 0x00, 0x00, 0x00, 0x04, 0x00, 0x04, 0x00,
  0x04, 0x00, 0x00, 0x00, 0x1f, 0x00, 0x00, 0x00, 0x73, 0x65, 0x72, 0x76,
  0x69, 0x6e, 0x67, 0x5f, 0x64, 0x65, 0x66, 0x61, 0x75, 0x6c, 0x74, 0x5f,
  0x69, 0x6e, 0x70, 0x75, 0x74, 0x5f, 0x6c, 0x61, 0x79, 0x65, 0x72, 0x5f,
  0x36, 0x3a, 0x30, 0x00, 0x02, 0x00, 0x00, 0x00, 0x01, 0x00, 0x00, 0x00,
  0x01, 0x00, 0x00, 0x00, 0x03, 0x00, 0x00, 0x00, 0x44, 0x00, 0x00, 0x00,
  0x24, 0x00, 0x00, 0x00, 0x04, 0x00, 0x00, 0x00, 0xf0, 0xff, 0xff, 0xff,
  0x06, 0x00, 0x00, 0x00, 0x02, 0x00, 0x00, 0x00, 0x00, 0x00, 0x00, 0x06,
  0x0c, 0x00, 0x10, 0x00, 0x0f, 0x00, 0x00, 0x00, 0x08, 0x00, 0x04, 0x00,
  0x0c, 0x00, 0x00, 0x00, 0x09, 0x00, 0x00, 0x00, 0x04, 0x00, 0x00, 0x00,
  0x00, 0x00, 0x00, 0x09, 0x0c, 0x00, 0x0c, 0x00, 0x0b, 0x00, 0x00, 0x00,
  0x00, 0x00, 0x04, 0x00, 0x0c, 0x00, 0x00, 0x00, 0x72, 0x00, 0x00, 0x00,
  0x00, 0x00, 0x00, 0x72
};
unsigned int g_model_len = 5488;
